unsigned char savedmodel_tflite[] = {
  0x1c, 0x00, 0x00, 0x00, 0x54, 0x46, 0x4c, 0x33, 0x14, 0x00, 0x20, 0x00,
  0x04, 0x00, 0x08, 0x00, 0x0c, 0x00, 0x10, 0x00, 0x14, 0x00, 0x00, 0x00,
  0x18, 0x00, 0x1c, 0x00, 0x14, 0x00, 0x00, 0x00, 0x03, 0x00, 0x00, 0x00,
  0x18, 0x00, 0x00, 0x00, 0x1c, 0x00, 0x00, 0x00, 0x3c, 0x01, 0x00, 0x00,
  0x1c, 0x00, 0x00, 0x00, 0xe4, 0x00, 0x00, 0x00, 0x48, 0x00, 0x00, 0x00,
  0x01, 0x00, 0x00, 0x00, 0x70, 0x03, 0x00, 0x00, 0x01, 0x00, 0x00, 0x00,
  0x44, 0x01, 0x00, 0x00, 0x0c, 0x00, 0x00, 0x00, 0x54, 0x0b, 0x00, 0x00,
  0x50, 0x0b, 0x00, 0x00, 0x84, 0x0a, 0x00, 0x00, 0xf4, 0x09, 0x00, 0x00,
  0x70, 0x09, 0x00, 0x00, 0xd8, 0x08, 0x00, 0x00, 0x80, 0x04, 0x00, 0x00,
  0xe8, 0x03, 0x00, 0x00, 0x34, 0x0b, 0x00, 0x00, 0x30, 0x0b, 0x00, 0x00,
  0x2c, 0x0b, 0x00, 0x00, 0xd0, 0x00, 0x00, 0x00, 0x01, 0x00, 0x00, 0x00,
  0x10, 0x00, 0x00, 0x00, 0x0c, 0x00, 0x14, 0x00, 0x10, 0x00, 0x0c, 0x00,
  0x08, 0x00, 0x04, 0x00, 0x0c, 0x00, 0x00, 0x00, 0x10, 0x00, 0x00, 0x00,
  0x18, 0x00, 0x00, 0x00, 0x28, 0x00, 0x00, 0x00, 0x2c, 0x00, 0x00, 0x00,
  0x05, 0x00, 0x00, 0x00, 0x73, 0x65, 0x72, 0x76, 0x65, 0x00, 0x00, 0x00,
  0x0f, 0x00, 0x00, 0x00, 0x73, 0x65, 0x72, 0x76, 0x69, 0x6e, 0x67, 0x5f,
  0x64, 0x65, 0x66, 0x61, 0x75, 0x6c, 0x74, 0x00, 0x01, 0x00, 0x00, 0x00,
  0x14, 0x00, 0x00, 0x00, 0x01, 0x00, 0x00, 0x00, 0x28, 0x00, 0x00, 0x00,
  0x08, 0x00, 0x0c, 0x00, 0x08, 0x00, 0x04, 0x00, 0x08, 0x00, 0x00, 0x00,
  0x09, 0x00, 0x00, 0x00, 0x04, 0x00, 0x00, 0x00, 0x08, 0x00, 0x00, 0x00,
  0x64, 0x65, 0x6e, 0x73, 0x65, 0x5f, 0x34, 0x30, 0x00, 0x00, 0x00, 0x00,
  0x26, 0xf6, 0xff, 0xff, 0x04, 0x00, 0x00, 0x00, 0x0e, 0x00, 0x00, 0x00,
  0x64, 0x65, 0x6e, 0x73, 0x65, 0x5f, 0x33, 0x38, 0x5f, 0x69, 0x6e, 0x70,
  0x75, 0x74, 0x00, 0x00, 0x01, 0x00, 0x00, 0x00, 0x0c, 0x00, 0x00, 0x00,
  0x08, 0x00, 0x0c, 0x00, 0x04, 0x00, 0x08, 0x00, 0x08, 0x00, 0x00, 0x00,
  0x08, 0x00, 0x00, 0x00, 0x0b, 0x00, 0x00, 0x00, 0x13, 0x00, 0x00, 0x00,
  0x6d, 0x69, 0x6e, 0x5f, 0x72, 0x75, 0x6e, 0x74, 0x69, 0x6d, 0x65, 0x5f,
  0x76, 0x65, 0x72, 0x73, 0x69, 0x6f, 0x6e, 0x00, 0x76, 0xf6, 0xff, 0xff,
  0x04, 0x00, 0x00, 0x00, 0x10, 0x00, 0x00, 0x00, 0x31, 0x2e, 0x35, 0x2e,
  0x30, 0x00, 0x00, 0x00, 0x00, 0x00, 0x00, 0x00, 0x00, 0x00, 0x00, 0x00,
  0x0f, 0x00, 0x00, 0x00, 0x4d, 0x4c, 0x49, 0x52, 0x20, 0x43, 0x6f, 0x6e,
  0x76, 0x65, 0x72, 0x74, 0x65, 0x64, 0x2e, 0x00, 0x00, 0x00, 0x0e, 0x00,
  0x18, 0x00, 0x04, 0x00, 0x08, 0x00, 0x0c, 0x00, 0x10, 0x00, 0x14, 0x00,
  0x0e, 0x00, 0x00, 0x00, 0x14, 0x00, 0x00, 0x00, 0x3c, 0x00, 0x00, 0x00,
  0x40, 0x00, 0x00, 0x00, 0x44, 0x00, 0x00, 0x00, 0x50, 0x00, 0x00, 0x00,
  0x0a, 0x00, 0x00, 0x00, 0x9c, 0x09, 0x00, 0x00, 0x50, 0x09, 0x00, 0x00,
  0xec, 0x08, 0x00, 0x00, 0x68, 0x08, 0x00, 0x00, 0xd0, 0x07, 0x00, 0x00,
  0x38, 0x07, 0x00, 0x00, 0xe0, 0x02, 0x00, 0x00, 0xfc, 0x01, 0x00, 0x00,
  0xfc, 0x00, 0x00, 0x00, 0x60, 0x00, 0x00, 0x00, 0x01, 0x00, 0x00, 0x00,
  0x00, 0x00, 0x00, 0x00, 0x01, 0x00, 0x00, 0x00, 0x09, 0x00, 0x00, 0x00,
  0x03, 0x00, 0x00, 0x00, 0x84, 0x01, 0x00, 0x00, 0xa8, 0x00, 0x00, 0x00,
  0x10, 0x00, 0x00, 0x00, 0x04, 0x00, 0x00, 0x00, 0x6d, 0x61, 0x69, 0x6e,
  0x00, 0x00, 0x00, 0x00, 0x7a, 0xff, 0xff, 0xff, 0x00, 0x00, 0x00, 0x08,
  0x18, 0x00, 0x00, 0x00, 0x0c, 0x00, 0x00, 0x00, 0x04, 0x00, 0x00, 0x00,
  0x70, 0xf6, 0xff, 0xff, 0x01, 0x00, 0x00, 0x00, 0x09, 0x00, 0x00, 0x00,
  0x03, 0x00, 0x00, 0x00, 0x08, 0x00, 0x00, 0x00, 0x06, 0x00, 0x00, 0x00,
  0x01, 0x00, 0x00, 0x00, 0xfc, 0xf6, 0xff, 0xff, 0x14, 0x00, 0x00, 0x00,
  0x0a, 0x00, 0x00, 0x00, 0x24, 0x00, 0x00, 0x00, 0x40, 0x00, 0x00, 0x00,
  0x10, 0x00, 0x00, 0x00, 0x02, 0x00, 0x00, 0x00, 0x01, 0x00, 0x00, 0x00,
  0x01, 0x00, 0x00, 0x00, 0x02, 0x00, 0x00, 0x00, 0xff, 0xff, 0xff, 0xff,
  0x01, 0x00, 0x00, 0x00, 0x19, 0x00, 0x00, 0x00, 0x53, 0x74, 0x61, 0x74,
  0x65, 0x66, 0x75, 0x6c, 0x50, 0x61, 0x72, 0x74, 0x69, 0x74, 0x69, 0x6f,
  0x6e, 0x65, 0x64, 0x43, 0x61, 0x6c, 0x6c, 0x3a, 0x30, 0x00, 0x00, 0x00,
  0xb0, 0xf7, 0xff, 0xff, 0x00, 0x00, 0x0e, 0x00, 0x14, 0x00, 0x00, 0x00,
  0x08, 0x00, 0x0c, 0x00, 0x07, 0x00, 0x10, 0x00, 0x0e, 0x00, 0x00, 0x00,
  0x00, 0x00, 0x00, 0x08, 0x1c, 0x00, 0x00, 0x00, 0x10, 0x00, 0x00, 0x00,
  0x04, 0x00, 0x00, 0x00, 0x26, 0xff, 0xff, 0xff, 0x00, 0x00, 0x00, 0x01,
  0x01, 0x00, 0x00, 0x00, 0x08, 0x00, 0x00, 0x00, 0x03, 0x00, 0x00, 0x00,
  0x07, 0x00, 0x00, 0x00, 0x05, 0x00, 0x00, 0x00, 0x02, 0x00, 0x00, 0x00,
  0x94, 0xf7, 0xff, 0xff, 0x14, 0x00, 0x00, 0x00, 0x09, 0x00, 0x00, 0x00,
  0x24, 0x00, 0x00, 0x00, 0x80, 0x00, 0x00, 0x00, 0x10, 0x00, 0x00, 0x00,
  0x02, 0x00, 0x00, 0x00, 0x01, 0x00, 0x00, 0x00, 0x10, 0x00, 0x00, 0x00,
  0x02, 0x00, 0x00, 0x00, 0xff, 0xff, 0xff, 0xff, 0x10, 0x00, 0x00, 0x00,
  0x58, 0x00, 0x00, 0x00, 0x73, 0x65, 0x71, 0x75, 0x65, 0x6e, 0x74, 0x69,
  0x61, 0x6c, 0x5f, 0x31, 0x34, 0x2f, 0x64, 0x65, 0x6e, 0x73, 0x65, 0x5f,
  0x33, 0x39, 0x2f, 0x4d, 0x61, 0x74, 0x4d, 0x75, 0x6c, 0x3b, 0x73, 0x65,
  0x71, 0x75, 0x65, 0x6e, 0x74, 0x69, 0x61, 0x6c, 0x5f, 0x31, 0x34, 0x2f,
  0x64, 0x65, 0x6e, 0x73, 0x65, 0x5f, 0x33, 0x39, 0x2f, 0x42, 0x69, 0x61,
  0x73, 0x41, 0x64, 0x64, 0x3b, 0x73, 0x65, 0x71, 0x75, 0x65, 0x6e, 0x74,
  0x69, 0x61, 0x6c, 0x5f, 0x31, 0x34, 0x2f, 0x64, 0x65, 0x6e, 0x73, 0x65,
  0x5f, 0x33, 0x39, 0x2f, 0x52, 0x65, 0x6c, 0x75, 0x00, 0x00, 0x00, 0x00,
  0x88, 0xf8, 0xff, 0xff, 0x00, 0x00, 0x0e, 0x00, 0x16, 0x00, 0x00, 0x00,
  0x08, 0x00, 0x0c, 0x00, 0x07, 0x00, 0x10, 0x00, 0x0e, 0x00, 0x00, 0x00,
  0x00, 0x00, 0x00, 0x08, 0x24, 0x00, 0x00, 0x00, 0x18, 0x00, 0x00, 0x00,
  0x0c, 0x00, 0x00, 0x00, 0x00, 0x00, 0x06, 0x00, 0x08, 0x00, 0x07, 0x00,
  0x06, 0x00, 0x00, 0x00, 0x00, 0x00, 0x00, 0x01, 0x01, 0x00, 0x00, 0x00,
  0x07, 0x00, 0x00, 0x00, 0x03, 0x00, 0x00, 0x00, 0x00, 0x00, 0x00, 0x00,
  0x04, 0x00, 0x00, 0x00, 0x03, 0x00, 0x00, 0x00, 0x0c, 0x00, 0x10, 0x00,
  0x0b, 0x00, 0x00, 0x00, 0x0c, 0x00, 0x04, 0x00, 0x0c, 0x00, 0x00, 0x00,
  0x09, 0x00, 0x00, 0x00, 0x00, 0x00, 0x00, 0x09, 0x01, 0x00, 0x00, 0x00,
  0x90, 0xf8, 0xff, 0xff, 0x14, 0x00, 0x00, 0x00, 0x08, 0x00, 0x00, 0x00,
  0x24, 0x00, 0x00, 0x00, 0x80, 0x00, 0x00, 0x00, 0x10, 0x00, 0x00, 0x00,
  0x02, 0x00, 0x00, 0x00, 0x01, 0x00, 0x00, 0x00, 0x10, 0x00, 0x00, 0x00,
  0x02, 0x00, 0x00, 0x00, 0xff, 0xff, 0xff, 0xff, 0x10, 0x00, 0x00, 0x00,
  0x58, 0x00, 0x00, 0x00, 0x73, 0x65, 0x71, 0x75, 0x65, 0x6e, 0x74, 0x69,
  0x61, 0x6c, 0x5f, 0x31, 0x34, 0x2f, 0x64, 0x65, 0x6e, 0x73, 0x65, 0x5f,
  0x33, 0x38, 0x2f, 0x4d, 0x61, 0x74, 0x4d, 0x75, 0x6c, 0x3b, 0x73, 0x65,
  0x71, 0x75, 0x65, 0x6e, 0x74, 0x69, 0x61, 0x6c, 0x5f, 0x31, 0x34, 0x2f,
  0x64, 0x65, 0x6e, 0x73, 0x65, 0x5f, 0x33, 0x38, 0x2f, 0x42, 0x69, 0x61,
  0x73, 0x41, 0x64, 0x64, 0x3b, 0x73, 0x65, 0x71, 0x75, 0x65, 0x6e, 0x74,
  0x69, 0x61, 0x6c, 0x5f, 0x31, 0x34, 0x2f, 0x64, 0x65, 0x6e, 0x73, 0x65,
  0x5f, 0x33, 0x38, 0x2f, 0x52, 0x65, 0x6c, 0x75, 0x00, 0x00, 0x00, 0x00,
  0xb0, 0xf8, 0xff, 0xff, 0x7e, 0xf9, 0xff, 0xff, 0x04, 0x00, 0x00, 0x00,
  0x40, 0x00, 0x00, 0x00, 0x90, 0xcb, 0x4f, 0x3f, 0x69, 0x3e, 0x20, 0x3f,
  0x84, 0xa7, 0x0a, 0xbf, 0xf8, 0xa2, 0x33, 0xbe, 0x6a, 0xad, 0xc0, 0x3d,
  0x5a, 0x73, 0x51, 0xbf, 0x88, 0x1c, 0xc4, 0xbe, 0x0f, 0x89, 0xf9, 0x3e,
  0x74, 0x1d, 0x48, 0x3f, 0xd4, 0xcc, 0x4b, 0xbf, 0x19, 0x41, 0x79, 0xbd,
  0x31, 0x92, 0x73, 0xbf, 0xc8, 0x4d, 0x0e, 0x3f, 0x63, 0x56, 0x19, 0x3f,
  0xf5, 0xce, 0x4b, 0x3f, 0xeb, 0x55, 0x27, 0xbe, 0xb2, 0xf9, 0xff, 0xff,
  0x10, 0x00, 0x00, 0x00, 0x07, 0x00, 0x00, 0x00, 0x14, 0x00, 0x00, 0x00,
  0x34, 0x00, 0x00, 0x00, 0x02, 0x00, 0x00, 0x00, 0x01, 0x00, 0x00, 0x00,
  0x10, 0x00, 0x00, 0x00, 0x1d, 0x00, 0x00, 0x00, 0x73, 0x65, 0x71, 0x75,
  0x65, 0x6e, 0x74, 0x69, 0x61, 0x6c, 0x5f, 0x31, 0x34, 0x2f, 0x64, 0x65,
  0x6e, 0x73, 0x65, 0x5f, 0x34, 0x30, 0x2f, 0x4d, 0x61, 0x74, 0x4d, 0x75,
  0x6c, 0x00, 0x00, 0x00, 0x44, 0xf9, 0xff, 0xff, 0x12, 0xfa, 0xff, 0xff,
  0x04, 0x00, 0x00, 0x00, 0x00, 0x04, 0x00, 0x00, 0x80, 0x68, 0x0f, 0x3c,
  0x97, 0xc1, 0xcd, 0x3d, 0x49, 0x35, 0x0f, 0xbf, 0x24, 0xec, 0xc5, 0xbe,
  0xc0, 0xa8, 0xd6, 0x3c, 0xd4, 0x05, 0xc3, 0x3e, 0xfa, 0xec, 0x8c, 0xbe,
  0x76, 0x52, 0x6a, 0x3e, 0x84, 0x29, 0x0b, 0xbf, 0x51, 0x11, 0x9e, 0x3e,
  0x55, 0xad, 0x56, 0x3e, 0xf0, 0xe9, 0x98, 0xbe, 0x87, 0x1d, 0x2b, 0x3e,
  0x15, 0x5a, 0xa6, 0x3d, 0x92, 0xf8, 0xfc, 0x3e, 0x49, 0xc7, 0x88, 0x3e,
  0x70, 0x4e, 0x48, 0xbd, 0x11, 0xc1, 0x6b, 0x3e, 0xb9, 0x27, 0x87, 0x3f,
  0xd0, 0x6f, 0x07, 0xbe, 0xcd, 0xce, 0xbc, 0x3e, 0x2f, 0xa1, 0xf3, 0xbe,
  0x56, 0x73, 0x72, 0x3c, 0x7e, 0x7b, 0x4a, 0x3e, 0x83, 0x19, 0x10, 0x3e,
  0xcb, 0x2b, 0xcb, 0x3d, 0x77, 0xcc, 0x92, 0xbe, 0x6a, 0x27, 0x97, 0xbe,
  0x99, 0xd7, 0x65, 0x3e, 0xa9, 0x86, 0x1f, 0xbe, 0xa8, 0xb7, 0xe4, 0xbe,
  0x4e, 0x7f, 0x89, 0xbe, 0x40, 0x3a, 0xa2, 0xbd, 0x0f, 0x27, 0x7d, 0xbd,
  0xb1, 0x7c, 0x4e, 0x3e, 0x68, 0xb4, 0x08, 0x3d, 0x77, 0x3e, 0xd3, 0x3e,
  0x19, 0xa8, 0xc0, 0x3e, 0xb9, 0xfe, 0xf2, 0xbe, 0xf8, 0x95, 0x5d, 0xbd,
  0xd7, 0x3a, 0xcb, 0xbd, 0x41, 0x2a, 0x30, 0x3e, 0x45, 0xed, 0xd8, 0x3e,
  0x4c, 0x38, 0xe2, 0xbd, 0x58, 0x64, 0x23, 0xbf, 0x9e, 0x0f, 0x94, 0x3d,
  0xef, 0x39, 0x27, 0x3f, 0x00, 0x90, 0x93, 0xbb, 0xa1, 0x5f, 0xda, 0x3e,
  0x43, 0xa9, 0x12, 0x3e, 0x87, 0x38, 0x85, 0xbd, 0x02, 0xd7, 0x72, 0x3e,
  0x44, 0xf2, 0xc4, 0xbd, 0x59, 0xe8, 0x45, 0xbc, 0xad, 0x7e, 0x1f, 0xbd,
  0xe6, 0xc2, 0x04, 0xbe, 0x59, 0x51, 0xa5, 0xbd, 0xec, 0xe7, 0x3d, 0x3e,
  0x29, 0x40, 0x11, 0x3f, 0xaf, 0x74, 0xb5, 0x3e, 0x25, 0xbe, 0xd0, 0x3e,
  0x64, 0xbe, 0x97, 0x3e, 0xef, 0xef, 0x6b, 0x3e, 0x8a, 0x41, 0xce, 0xbe,
  0x22, 0x4f, 0x27, 0x3e, 0xbe, 0xbd, 0x36, 0xbe, 0x5f, 0x50, 0xd6, 0x3e,
  0x68, 0x2e, 0x08, 0x3d, 0xa0, 0x8d, 0xa0, 0xbd, 0x7b, 0x89, 0x7b, 0xbe,
  0x2d, 0x50, 0xd2, 0xbe, 0xe0, 0x00, 0x42, 0xbc, 0xe6, 0x18, 0x90, 0x3d,
  0xae, 0xcc, 0x6c, 0x3c, 0xe4, 0xfe, 0xc2, 0xbd, 0x2c, 0xe2, 0xc4, 0xbe,
  0xef, 0xda, 0x73, 0x3d, 0x45, 0x56, 0xa3, 0x3e, 0x00, 0x4b, 0xee, 0xba,
  0xd5, 0x44, 0x86, 0xbe, 0xbc, 0xb3, 0x08, 0xbe, 0x2a, 0xfd, 0xef, 0x3e,
  0xea, 0x53, 0x70, 0xbf, 0x38, 0xc8, 0x48, 0x3d, 0x0a, 0x8b, 0x55, 0x3e,
  0x09, 0x6f, 0x9b, 0xbe, 0xea, 0xea, 0x44, 0xbd, 0x9a, 0x43, 0x61, 0x3e,
  0x53, 0x99, 0xca, 0xbd, 0x24, 0xba, 0x97, 0x3e, 0x58, 0x81, 0xf6, 0xbc,
  0x26, 0xb3, 0xac, 0x3e, 0xc7, 0xf9, 0x30, 0x3e, 0x70, 0xb3, 0x32, 0x3c,
  0x2c, 0x8d, 0x07, 0x3f, 0x9f, 0x09, 0xb0, 0x3e, 0x28, 0xc9, 0x62, 0xbd,
  0x80, 0x0b, 0xad, 0xbe, 0x08, 0x02, 0x83, 0xbd, 0x99, 0xad, 0xcd, 0xbe,
  0x80, 0x9e, 0x3d, 0x3c, 0xdf, 0xe4, 0xad, 0xbe, 0xb3, 0x81, 0x91, 0x3e,
  0x24, 0x5b, 0xb6, 0x3d, 0x74, 0x8f, 0x17, 0xbe, 0x50, 0x19, 0x8f, 0x3c,
  0x38, 0xc4, 0x2b, 0xbe, 0xa4, 0xea, 0xa1, 0xbe, 0xd4, 0x03, 0xcc, 0xbd,
  0xca, 0x7f, 0x30, 0xbe, 0xd9, 0x5a, 0xd1, 0xbe, 0x20, 0xb0, 0x2d, 0xbd,
  0x6c, 0x3e, 0xb3, 0x3d, 0x27, 0x4e, 0xc5, 0x3e, 0xa7, 0xbf, 0x37, 0xbe,
  0x5a, 0xf5, 0x3e, 0x3e, 0x41, 0x8d, 0x59, 0xbe, 0xf5, 0xba, 0x98, 0xbd,
  0x8d, 0x63, 0x3c, 0xbe, 0x0c, 0xee, 0xad, 0xbd, 0x80, 0xca, 0x0c, 0x3e,
  0xb5, 0xc0, 0xb9, 0x3e, 0x43, 0xce, 0x01, 0xbe, 0x02, 0xc2, 0x8e, 0xbd,
  0x55, 0x8d, 0x85, 0xbe, 0x2b, 0x60, 0x04, 0xbf, 0xb2, 0x68, 0x0a, 0x3f,
  0x62, 0xdc, 0x29, 0xbe, 0x38, 0xdd, 0x19, 0xbd, 0x7c, 0x68, 0x98, 0x3e,
  0xb1, 0x8f, 0x42, 0xbf, 0x22, 0x98, 0xc4, 0xbe, 0x7f, 0x60, 0xb3, 0xbe,
  0x22, 0xf3, 0x82, 0x3e, 0xb5, 0x7a, 0xe6, 0xbe, 0x2a, 0x6d, 0x20, 0x3e,
  0xba, 0x8e, 0xd6, 0xbe, 0x10, 0xed, 0xe2, 0xbe, 0x24, 0xd3, 0x05, 0x3f,
  0xb2, 0xb2, 0x54, 0x3d, 0xe1, 0xdb, 0x85, 0x3d, 0x5e, 0xcc, 0x51, 0xbe,
  0xba, 0x7f, 0x70, 0x3f, 0xf2, 0x18, 0x64, 0x3e, 0x56, 0x18, 0x60, 0x3e,
  0xeb, 0xa9, 0x56, 0xbe, 0x0f, 0x85, 0x91, 0xbe, 0x18, 0xad, 0xad, 0xbe,
  0xa0, 0x04, 0xdc, 0xbe, 0xa0, 0xa5, 0xaa, 0x3e, 0x5e, 0xd5, 0xc5, 0xbe,
  0x03, 0x73, 0x9d, 0x3e, 0xec, 0xc3, 0x89, 0x3d, 0xd5, 0xae, 0xfd, 0xbe,
  0x4f, 0x93, 0xdf, 0x3e, 0xab, 0x2f, 0xa6, 0x3d, 0xc1, 0xda, 0x1b, 0xbf,
  0x0a, 0x3e, 0xbb, 0x3e, 0x0d, 0xf4, 0xff, 0x3e, 0xb6, 0xce, 0x03, 0x3e,
  0xf6, 0x57, 0x8a, 0xbe, 0xae, 0x6c, 0x9c, 0x3e, 0x53, 0xf2, 0xd5, 0xbe,
  0x8e, 0x05, 0x0c, 0x3e, 0xd5, 0x00, 0xaa, 0x3e, 0x82, 0xb4, 0x7e, 0xbe,
  0xc4, 0xb3, 0x13, 0x3e, 0xa5, 0xac, 0x95, 0xbe, 0x02, 0x6f, 0x86, 0xbd,
  0xb7, 0xbe, 0x9b, 0x3e, 0x52, 0x07, 0x82, 0x3e, 0xc6, 0x67, 0x7e, 0xbd,
  0x11, 0x4c, 0xb2, 0x3e, 0xe7, 0x6c, 0xb3, 0xbe, 0xff, 0xca, 0x6a, 0x3e,
  0x85, 0xd5, 0x85, 0xbe, 0xe0, 0xf3, 0x2c, 0x3d, 0x44, 0xa3, 0x94, 0xbe,
  0xc4, 0x3c, 0xe9, 0xbd, 0xab, 0x17, 0x69, 0xbe, 0xb5, 0xa4, 0xbb, 0x3e,
  0xd4, 0x44, 0xd6, 0x3e, 0x28, 0x36, 0x89, 0xbe, 0xe8, 0x72, 0x58, 0x3d,
  0x94, 0x47, 0xa0, 0x3e, 0x0f, 0xce, 0xef, 0x3e, 0xc4, 0xbc, 0xee, 0x3e,
  0x02, 0x3a, 0xa2, 0xbe, 0xf6, 0x3c, 0x1f, 0xbf, 0xda, 0x3f, 0x64, 0x3e,
  0x04, 0xe8, 0x83, 0x3e, 0x99, 0x84, 0xd2, 0xbe, 0xa0, 0x83, 0x2d, 0x3d,
  0x24, 0x95, 0xa8, 0x3e, 0xd0, 0xc9, 0x95, 0x3e, 0x7d, 0xfb, 0x84, 0x3e,
  0x5f, 0x82, 0x81, 0x3e, 0x43, 0x1c, 0x88, 0x3e, 0x42, 0x65, 0xca, 0x3e,
  0xd6, 0xc0, 0x3f, 0xbe, 0xbc, 0x0d, 0xdb, 0x3e, 0x1e, 0x77, 0xd7, 0xbe,
  0x24, 0x7d, 0x29, 0xbf, 0xda, 0x41, 0xa4, 0x3c, 0xd5, 0xff, 0x94, 0x3d,
  0x1c, 0x32, 0x15, 0x3e, 0x9d, 0x1d, 0x50, 0xbe, 0xd1, 0xe7, 0x85, 0x3e,
  0x30, 0xaf, 0x2f, 0x3d, 0xf3, 0x20, 0x92, 0x3e, 0x63, 0xdd, 0x36, 0xbc,
  0xdc, 0x29, 0xa6, 0x3d, 0x4c, 0x65, 0xb3, 0xbe, 0x0c, 0x34, 0xb0, 0x3d,
  0x98, 0x57, 0xcd, 0x3d, 0x3b, 0xe7, 0xb8, 0xbe, 0x2b, 0x05, 0xd8, 0xbe,
  0x1e, 0x8e, 0x45, 0xbe, 0xfb, 0xac, 0x75, 0x3d, 0xa0, 0x36, 0xed, 0xbe,
  0x3e, 0xae, 0x0a, 0xbe, 0x28, 0xd9, 0xfe, 0xbc, 0x8b, 0x87, 0x44, 0xbd,
  0x24, 0xaa, 0xe3, 0x3d, 0x0b, 0x31, 0x43, 0xbe, 0x82, 0x68, 0xda, 0x3e,
  0x47, 0x17, 0x67, 0xbf, 0xb9, 0xb9, 0x52, 0xbe, 0x7b, 0x41, 0xc5, 0x3e,
  0xd5, 0x38, 0xe0, 0x3d, 0x5b, 0xab, 0x03, 0xbf, 0x40, 0xed, 0x36, 0x3d,
  0x46, 0x88, 0x6f, 0xbe, 0xd6, 0x8f, 0x64, 0x3c, 0xd5, 0x17, 0x0a, 0x3f,
  0xc9, 0x4a, 0x83, 0x3e, 0xb4, 0x28, 0x84, 0xbe, 0xab, 0x7f, 0x04, 0xbf,
  0x12, 0xe0, 0x71, 0x3f, 0x34, 0x71, 0x6b, 0xbe, 0x02, 0x64, 0xad, 0xbe,
  0x6a, 0x77, 0x6f, 0x3e, 0x84, 0x39, 0x11, 0xbe, 0x86, 0x3d, 0x05, 0x3e,
  0x57, 0x2a, 0xd9, 0x3e, 0xc5, 0x30, 0x78, 0x3e, 0x48, 0x40, 0x90, 0x3e,
  0x12, 0x29, 0x07, 0x3e, 0xda, 0x2b, 0x92, 0xbe, 0xa1, 0x98, 0x63, 0xbd,
  0x61, 0x14, 0x0d, 0xbd, 0xaa, 0xeb, 0x3c, 0xbe, 0x63, 0xd8, 0xbe, 0xbd,
  0x40, 0x38, 0x99, 0xbe, 0x7a, 0x73, 0x60, 0x3e, 0x9e, 0xd8, 0x6a, 0x3e,
  0x06, 0xfe, 0xff, 0xff, 0x10, 0x00, 0x00, 0x00, 0x06, 0x00, 0x00, 0x00,
  0x14, 0x00, 0x00, 0x00, 0x34, 0x00, 0x00, 0x00, 0x02, 0x00, 0x00, 0x00,
  0x10, 0x00, 0x00, 0x00, 0x10, 0x00, 0x00, 0x00, 0x1d, 0x00, 0x00, 0x00,
  0x73, 0x65, 0x71, 0x75, 0x65, 0x6e, 0x74, 0x69, 0x61, 0x6c, 0x5f, 0x31,
  0x34, 0x2f, 0x64, 0x65, 0x6e, 0x73, 0x65, 0x5f, 0x33, 0x39, 0x2f, 0x4d,
  0x61, 0x74, 0x4d, 0x75, 0x6c, 0x00, 0x00, 0x00, 0x98, 0xfd, 0xff, 0xff,
  0x66, 0xfe, 0xff, 0xff, 0x04, 0x00, 0x00, 0x00, 0x40, 0x00, 0x00, 0x00,
  0x6e, 0xb7, 0xcb, 0xbe, 0x83, 0x1d, 0xec, 0x3e, 0x44, 0x3e, 0xbe, 0x3e,
  0x50, 0x46, 0x9f, 0xbd, 0x7c, 0x25, 0x7d, 0xbe, 0x8c, 0xb7, 0x06, 0x3e,
  0x8d, 0xb1, 0x1c, 0x3f, 0x98, 0xed, 0x9d, 0xbd, 0x67, 0xc4, 0x9d, 0x3e,
  0xf0, 0x61, 0xc3, 0x3d, 0x4d, 0x59, 0x8d, 0x3d, 0x9a, 0x46, 0x13, 0x3e,
  0x95, 0x05, 0x02, 0x3f, 0xbe, 0x8c, 0x40, 0x3e, 0x7c, 0x3c, 0xbc, 0xbb,
  0x4e, 0x2f, 0x10, 0xbf, 0x9a, 0xfe, 0xff, 0xff, 0x10, 0x00, 0x00, 0x00,
  0x05, 0x00, 0x00, 0x00, 0x14, 0x00, 0x00, 0x00, 0x34, 0x00, 0x00, 0x00,
  0x02, 0x00, 0x00, 0x00, 0x10, 0x00, 0x00, 0x00, 0x01, 0x00, 0x00, 0x00,
  0x1d, 0x00, 0x00, 0x00, 0x73, 0x65, 0x71, 0x75, 0x65, 0x6e, 0x74, 0x69,
  0x61, 0x6c, 0x5f, 0x31, 0x34, 0x2f, 0x64, 0x65, 0x6e, 0x73, 0x65, 0x5f,
  0x33, 0x38, 0x2f, 0x4d, 0x61, 0x74, 0x4d, 0x75, 0x6c, 0x00, 0x00, 0x00,
  0x2c, 0xfe, 0xff, 0xff, 0xfa, 0xfe, 0xff, 0xff, 0x04, 0x00, 0x00, 0x00,
  0x40, 0x00, 0x00, 0x00, 0x00, 0x00, 0x00, 0x00, 0x42, 0x37, 0xf1, 0x3e,
  0xdb, 0x78, 0x84, 0xbf, 0x00, 0x00, 0x00, 0x00, 0x00, 0x00, 0x00, 0x00,
  0x94, 0x83, 0x93, 0x3c, 0x32, 0x63, 0x1b, 0xbf, 0x00, 0x00, 0x00, 0x00,
  0xe7, 0x6b, 0xcf, 0xbe, 0xfd, 0xca, 0xab, 0x3e, 0xd9, 0x70, 0x48, 0x3f,
  0x3b, 0xa8, 0x07, 0x3e, 0xc3, 0xc4, 0xab, 0x3d, 0xae, 0xb6, 0x1b, 0xbe,
  0x41, 0xbd, 0xbd, 0x3e, 0x00, 0x00, 0x00, 0x00, 0x2e, 0xff, 0xff, 0xff,
  0x10, 0x00, 0x00, 0x00, 0x04, 0x00, 0x00, 0x00, 0x10, 0x00, 0x00, 0x00,
  0x20, 0x00, 0x00, 0x00, 0x01, 0x00, 0x00, 0x00, 0x10, 0x00, 0x00, 0x00,
  0x0d, 0x00, 0x00, 0x00, 0x64, 0x65, 0x6e, 0x73, 0x65, 0x5f, 0x33, 0x38,
  0x2f, 0x62, 0x69, 0x61, 0x73, 0x00, 0x00, 0x00, 0xac, 0xfe, 0xff, 0xff,
  0x7a, 0xff, 0xff, 0xff, 0x04, 0x00, 0x00, 0x00, 0x40, 0x00, 0x00, 0x00,
  0x97, 0x0d, 0x87, 0x3e, 0x72, 0xbb, 0xe8, 0xbe, 0xed, 0x57, 0xd9, 0x3e,
  0x45, 0x91, 0x8a, 0x3e, 0xb8, 0xfe, 0xa5, 0xbb, 0x61, 0x40, 0xaa, 0x3e,
  0x00, 0x00, 0x00, 0x00, 0x04, 0x45, 0x62, 0x3e, 0x73, 0xdd, 0x0c, 0x3f,
  0xc9, 0x4c, 0xe8, 0x3e, 0xab, 0x63, 0x16, 0x3e, 0xe8, 0x6a, 0xec, 0x3e,
  0x4b, 0x02, 0xa4, 0xbe, 0x53, 0xf0, 0x18, 0x3e, 0x3c, 0xd4, 0x02, 0x3f,
  0x7b, 0x8c, 0x77, 0x3e, 0xae, 0xff, 0xff, 0xff, 0x10, 0x00, 0x00, 0x00,
  0x03, 0x00, 0x00, 0x00, 0x10, 0x00, 0x00, 0x00, 0x24, 0x00, 0x00, 0x00,
  0x01, 0x00, 0x00, 0x00, 0x10, 0x00, 0x00, 0x00, 0x0d, 0x00, 0x00, 0x00,
  0x64, 0x65, 0x6e, 0x73, 0x65, 0x5f, 0x33, 0x39, 0x2f, 0x62, 0x69, 0x61,
  0x73, 0x00, 0x00, 0x00, 0x04, 0x00, 0x06, 0x00, 0x04, 0x00, 0x00, 0x00,
  0x00, 0x00, 0x06, 0x00, 0x08, 0x00, 0x04, 0x00, 0x06, 0x00, 0x00, 0x00,
  0x04, 0x00, 0x00, 0x00, 0x04, 0x00, 0x00, 0x00, 0xeb, 0x68, 0xa2, 0xbe,
  0x00, 0x00, 0x0e, 0x00, 0x14, 0x00, 0x04, 0x00, 0x00, 0x00, 0x08, 0x00,
  0x0c, 0x00, 0x10, 0x00, 0x0e, 0x00, 0x00, 0x00, 0x10, 0x00, 0x00, 0x00,
  0x02, 0x00, 0x00, 0x00, 0x10, 0x00, 0x00, 0x00, 0x20, 0x00, 0x00, 0x00,
  0x01, 0x00, 0x00, 0x00, 0x01, 0x00, 0x00, 0x00, 0x0d, 0x00, 0x00, 0x00,
  0x64, 0x65, 0x6e, 0x73, 0x65, 0x5f, 0x34, 0x30, 0x2f, 0x62, 0x69, 0x61,
  0x73, 0x00, 0x00, 0x00, 0x8c, 0xff, 0xff, 0xff, 0x14, 0x00, 0x18, 0x00,
  0x04, 0x00, 0x00, 0x00, 0x08, 0x00, 0x0c, 0x00, 0x10, 0x00, 0x00, 0x00,
  0x00, 0x00, 0x14, 0x00, 0x14, 0x00, 0x00, 0x00, 0x14, 0x00, 0x00, 0x00,
  0x01, 0x00, 0x00, 0x00, 0x24, 0x00, 0x00, 0x00, 0x48, 0x00, 0x00, 0x00,
  0x10, 0x00, 0x00, 0x00, 0x02, 0x00, 0x00, 0x00, 0x01, 0x00, 0x00, 0x00,
  0x01, 0x00, 0x00, 0x00, 0x02, 0x00, 0x00, 0x00, 0xff, 0xff, 0xff, 0xff,
  0x01, 0x00, 0x00, 0x00, 0x20, 0x00, 0x00, 0x00, 0x73, 0x65, 0x72, 0x76,
  0x69, 0x6e, 0x67, 0x5f, 0x64, 0x65, 0x66, 0x61, 0x75, 0x6c, 0x74, 0x5f,
  0x64, 0x65, 0x6e, 0x73, 0x65, 0x5f, 0x33, 0x38, 0x5f, 0x69, 0x6e, 0x70,
  0x75, 0x74, 0x3a, 0x30, 0x00, 0x00, 0x00, 0x00, 0xfc, 0xff, 0xff, 0xff,
  0x04, 0x00, 0x04, 0x00, 0x04, 0x00, 0x00, 0x00
};
unsigned int savedmodel_tflite_len = 2984;
